{
  "eos": 0, 
  "UNK": 1, 
  "a": 2, 
  ".": 3, 
  "in": 4, 
  "o@@": 5, 
  "the": 6, 
  "c@@": 7, 
  "e@@": 8, 
  "s@@": 9, 
  "on": 10, 
  "i@@": 11, 
  "l@@": 12, 
  "a@@": 13, 
  "man": 14, 
  "t@@": 15, 
  "is": 16, 
  "and": 17, 
  "p@@": 18, 
  "of": 19, 
  "u@@": 20, 
  "m@@": 21, 
  "h@@": 22, 
  "with": 23, 
  "r@@": 24, 
  "e": 25, 
  "g@@": 26, 
  "b@@": 27, 
  "f@@": 28, 
  "d@@": 29, 
  "s": 30, 
  "woman": 31, 
  ",": 32, 
  "two": 33, 
  "are": 34, 
  "w@@": 35, 
  "ing": 36, 
  "n@@": 37, 
  "an": 38, 
  "at": 39, 
  "to": 40, 
  "people": 41, 
  "v@@": 42, 
  "es": 43, 
  "k@@": 44, 
  "st@@": 45, 
  "wearing": 46, 
  "er@@": 47, 
  "in@@": 48, 
  "t": 49, 
  "ar@@": 50, 
  "young": 51, 
  "white": 52, 
  "at@@": 53, 
  "an@@": 54, 
  "shirt": 55, 
  "en@@": 56, 
  "black": 57, 
  "red": 58, 
  "er": 59, 
  "his": 60, 
  "while": 61, 
  "y": 62, 
  "blue": 63, 
  "re@@": 64, 
  "men": 65, 
  "sitting": 66, 
  "girl": 67, 
  "ro@@": 68, 
  "dog": 69, 
  "boy": 70, 
  "ed": 71, 
  "d": 72, 
  "y@@": 73, 
  "ra@@": 74, 
  "standing": 75, 
  "playing": 76, 
  "group": 77, 
  "sh@@": 78, 
  "al@@": 79, 
  "street": 80, 
  "down": 81, 
  "walking": 82, 
  "la@@": 83, 
  "un@@": 84, 
  "front": 85, 
  "her": 86, 
  "one": 87, 
  "holding": 88, 
  "l": 89, 
  "lo@@": 90, 
  "by": 91, 
  "ri@@": 92, 
  "ers": 93, 
  "water": 94, 
  "po@@": 95, 
  "three": 96, 
  "h": 97, 
  "up": 98, 
  "-@@": 99, 
  "women": 100, 
  "li@@": 101, 
  "n": 102, 
  "looking": 103, 
  "as": 104, 
  "green": 105, 
  "little": 106, 
  "for": 107, 
  "ti@@": 108, 
  "child": 109, 
  "outside": 110, 
  "large": 111, 
  "de@@": 112, 
  "k": 113, 
  "through": 114, 
  "yellow": 115, 
  "children": 116, 
  "ball": 117, 
  "brown": 118, 
  "ca@@": 119, 
  "ts": 120, 
  "person": 121, 
  "p": 122, 
  "from": 123, 
  "hat": 124, 
  "their": 125, 
  "j@@": 126, 
  "into": 127, 
  "di@@": 128, 
  "out": 129, 
  "pe@@": 130, 
  "m": 131, 
  "small": 132, 
  "next": 133, 
  "other": 134, 
  "to@@": 135, 
  "dressed": 136, 
  "some": 137, 
  "over": 138, 
  "r": 139, 
  "building": 140, 
  "riding": 141, 
  "running": 142, 
  "near": 143, 
  "jacket": 144, 
  "another": 145, 
  "around": 146, 
  "w": 147, 
  "ks": 148, 
  "field": 149, 
  "table": 150, 
  "sidewalk": 151, 
  "orange": 152, 
  "crowd": 153, 
  "beach": 154, 
  "ly": 155, 
  "air": 156, 
  "co@@": 157, 
  "stands": 158, 
  "pink": 159, 
  "sits": 160, 
  "jumping": 161, 
  "ds": 162, 
  "behind": 163, 
  "ta@@": 164, 
  "si@@": 165, 
  "ding": 166, 
  "top": 167, 
  "ting": 168, 
  "grass": 169, 
  "stand": 170, 
  "z@@": 171, 
  "bike": 172, 
  "se@@": 173, 
  "background": 174, 
  "snow": 175, 
  "bu@@": 176, 
  "st": 177, 
  "city": 178, 
  "&apos;s": 179, 
  "girls": 180, 
  "o": 181, 
  "player": 182, 
  "looks": 183, 
  "asian": 184, 
  "con@@": 185, 
  "wall": 186, 
  "al": 187, 
  "dogs": 188, 
  "dress": 189, 
  "that": 190, 
  "several": 191, 
  "c": 192, 
  "older": 193, 
  "four": 194, 
  "off": 195, 
  "camera": 196, 
  "hair": 197, 
  "park": 198, 
  "side": 199, 
  "talking": 200, 
  "it": 201, 
  "something": 202, 
  "lady": 203, 
  "boys": 204, 
  "soccer": 205, 
  "walks": 206, 
  "along": 207, 
  "guitar": 208, 
  "working": 209, 
  "food": 210, 
  "play": 211, 
  "together": 212, 
  "king": 213, 
  "walk": 214, 
  "smiling": 215, 
  "gray": 216, 
  "plays": 217, 
  "picture": 218, 
  "game": 219, 
  "road": 220, 
  "has": 221, 
  "car": 222, 
  "suit": 223, 
  "hand": 224, 
  "g": 225, 
  "holds": 226, 
  "ling": 227, 
  "old": 228, 
  "glasses": 229, 
  "head": 230, 
  "pants": 231, 
  "x@@": 232, 
  "bench": 233, 
  "face": 234, 
  "him": 235, 
  "sit": 236, 
  "its": 237, 
  "q@@": 238, 
  "shorts": 239, 
  "stage": 240, 
  "carrying": 241, 
  "ex@@": 242, 
  "couple": 243, 
  "baby": 244, 
  "car@@": 245, 
  "ground": 246, 
  "or": 247, 
  "them": 248, 
  "ice": 249, 
  "bicycle": 250, 
  "ba@@": 251, 
  "b": 252, 
  "be@@": 253, 
  "&quot;": 254, 
  "all": 255, 
  "tree": 256, 
  "pool": 257, 
  "race": 258, 
  "male": 259, 
  "back": 260, 
  "f": 261, 
  "taking": 262, 
  "room": 263, 
  "rock": 264, 
  "day": 265, 
  "each": 266, 
  "doing": 267, 
  "way": 268, 
  "boat": 269, 
  "across": 270, 
  "watching": 271, 
  "guy": 272, 
  "jeans": 273, 
  "dirt": 274, 
  "there": 275, 
  "area": 276, 
  "ps": 277, 
  "be": 278, 
  "blond": 279, 
  "jumps": 280, 
  "hands": 281, 
  "band": 282, 
  "female": 283, 
  "coat": 284, 
  "performing": 285, 
  "baseball": 286, 
  "who": 287, 
  "eating": 288, 
  "being": 289, 
  "line": 290, 
  "striped": 291, 
  "using": 292, 
  "football": 293, 
  "sign": 294, 
  "watch": 295, 
  "kids": 296, 
  "board": 297, 
  "under": 298, 
  "many": 299, 
  "store": 300, 
  "horse": 301, 
  "mouth": 302, 
  "purple": 303, 
  "he": 304, 
  "long": 305, 
  "this": 306, 
  "look": 307, 
  "sand": 308, 
  "chair": 309, 
  "posing": 310, 
  "tennis": 311, 
  "runs": 312, 
  "reading": 313, 
  "players": 314, 
  "construction": 315, 
  "sunglasses": 316, 
  "clothing": 317, 
  "microphone": 318, 
  "pre@@": 319, 
  "work": 320, 
  "mountain": 321, 
  "covered": 322, 
  "toy": 323, 
  "ocean": 324, 
  "dark": 325, 
  "basketball": 326, 
  "light": 327, 
  "workers": 328, 
  "during": 329, 
  "middle": 330, 
  "watches": 331, 
  "climbing": 332, 
  "t-shirt": 333, 
  "dancing": 334, 
  "uniform": 335, 
  "past": 336, 
  "elderly": 337, 
  "restaurant": 338, 
  "against": 339, 
  "helmet": 340, 
  "shirts": 341, 
  "train": 342, 
  "team": 343, 
  "der": 344, 
  "window": 345, 
  "rides": 346, 
  "set": 347, 
  "they": 348, 
  "about": 349, 
  "colored": 350, 
  "trees": 351, 
  "outdoor": 352, 
  "wooden": 353, 
  "having": 354, 
  "waiting": 355, 
  "five": 356, 
  "bag": 357, 
  "swimming": 358, 
  "very": 359, 
  "getting": 360, 
  "floor": 361, 
  "truck": 362, 
  "trying": 363, 
  "skateboard": 364, 
  "colorful": 365, 
  "ted": 366, 
  "busy": 367, 
  "book": 368, 
  "singing": 369, 
  "fence": 370, 
  "hill": 371, 
  "jump": 372, 
  "market": 373, 
  "i": 374, 
  "cart": 375, 
  "ride": 376, 
  "inside": 377, 
  "laying": 378, 
  "hats": 379, 
  "high": 380, 
  "bright": 381, 
  "tan": 382, 
  "others": 383, 
  "body": 384, 
  "ation": 385, 
  "cap": 386, 
  "kitchen": 387, 
  "cellphone": 388, 
  "grassy": 389, 
  "path": 390, 
  "big": 391, 
  "someone": 392, 
  "making": 393, 
  "clothes": 394, 
  "bus": 395, 
  "night": 396, 
  "motorcycle": 397, 
  "takes": 398, 
  "phone": 399, 
  "umbrella": 400, 
  "shop": 401, 
  "led": 402, 
  "towards": 403, 
  "outfit": 404, 
  "full": 405, 
  "track": 406, 
  "enjoying": 407, 
  "brick": 408, 
  "yard": 409, 
  "metal": 410, 
  "river": 411, 
  "swing": 412, 
  "ready": 413, 
  "piece": 414, 
  "paper": 415, 
  "stone": 416, 
  "she": 417, 
  "tank": 418, 
  "arm": 419, 
  "house": 420, 
  "worker": 421, 
  "sweater": 422, 
  "open": 423, 
  "trick": 424, 
  "stick": 425, 
  "painting": 426, 
  "above": 427, 
  "lake": 428, 
  "adults": 429, 
  "american": 430, 
  "going": 431, 
  "music": 432, 
  "snowy": 433, 
  "hard": 434, 
  "vest": 435, 
  "dance": 436, 
  "run": 437, 
  "shopping": 438, 
  "wave": 439, 
  "onto": 440, 
  "surrounded": 441, 
  "uniforms": 442, 
  "crowded": 443, 
  "like": 444, 
  "hand@@": 445, 
  "outdoors": 446, 
  "photo": 447, 
  "fire": 448, 
  "gear": 449, 
  "backpack": 450, 
  "beside": 451, 
  "smiles": 452, 
  "kid": 453, 
  "pole": 454, 
  "hockey": 455, 
  "african": 456, 
  "subway": 457, 
  "drinking": 458, 
  "family": 459, 
  "flowers": 460, 
  "bridge": 461, 
  "toddler": 462, 
  "art": 463, 
  "arms": 464, 
  "gathered": 465, 
  "event": 466, 
  "rope": 467, 
  "guys": 468, 
  "shoes": 469, 
  "hanging": 470, 
  "lot": 471, 
  "police": 472, 
  "away": 473, 
  "catch": 474, 
  "preparing": 475, 
  "beautiful": 476, 
  "object": 477, 
  "2": 478, 
  "sleeping": 479, 
  "leaning": 480, 
  "steps": 481, 
  "costume": 482, 
  "fishing": 483, 
  "after": 484, 
  "machine": 485, 
  "plaid": 486, 
  "fountain": 487, 
  "bar": 488, 
  "shirtless": 489, 
  "stairs": 490, 
  "x": 491, 
  "take": 492, 
  "wood": 493, 
  "chairs": 494, 
  "adult": 495, 
  "rocks": 496, 
  "graffiti": 497, 
  "sunny": 498, 
  "cross": 499, 
  "door": 500, 
  "selling": 501, 
  "glass": 502, 
  "does": 503, 
  "forest": 504, 
  "pose": 505, 
  "racing": 506, 
  "setting": 507, 
  "parade": 508, 
  "tall": 509, 
  ";": 510, 
  "time": 511, 
  "corner": 512, 
  "volleyball": 513, 
  "get": 514, 
  "putting": 515, 
  "both": 516, 
  "pushing": 517, 
  "scarf": 518, 
  "view": 519, 
  "frisbee": 520, 
  "throwing": 521, 
  "drink": 522, 
  "slide": 523, 
  "between": 524, 
  "ladies": 525, 
  "have": 526, 
  "public": 527, 
  "laughing": 528, 
  "short": 529, 
  "computer": 530, 
  "instruments": 531, 
  "equipment": 532, 
  "flag": 533, 
  "couch": 534, 
  "pictures": 535, 
  "bikes": 536, 
  "where": 537, 
  "fish": 538, 
  "bed": 539, 
  "party": 540, 
  "cowboy": 541, 
  "ramp": 542, 
  "plastic": 543, 
  "woods": 544, 
  "sweatshirt": 545, 
  "playground": 546, 
  "trail": 547, 
  "poses": 548, 
  "reads": 549, 
  "which": 550, 
  "works": 551, 
  "sun": 552, 
  "beard": 553, 
  "statue": 554, 
  "concrete": 555, 
  "dock": 556, 
  "ins": 557, 
  "winter": 558, 
  "midair": 559, 
  "number": 560, 
  "just": 561, 
  "suits": 562, 
  "rain": 563, 
  "skirt": 564, 
  "seated": 565, 
  "distance": 566, 
  "what": 567, 
  "attire": 568, 
  "bags": 569, 
  "sky": 570, 
  "toward": 571, 
  "place": 572, 
  "cooking": 573, 
  "beer": 574, 
  "school": 575, 
  "six": 576, 
  "lined": 577, 
  "filled": 578, 
  "rider": 579, 
  "vests": 580, 
  "blond-hair": 581, 
  "cutting": 582, 
  "tent": 583, 
  "left": 584, 
  "buildings": 585, 
  "pulling": 586, 
  "shore": 587, 
  "mother": 588, 
  "middle-aged": 589, 
  "arts": 590, 
  "cream": 591, 
  "skateboarder": 592, 
  "go": 593, 
  "appears": 594, 
  "friends": 595, 
  "crossing": 596, 
  "station": 597, 
  "cliff": 598, 
  "instrument": 599, 
  "spectators": 600, 
  "edge": 601, 
  "few": 602, 
  "showing": 603, 
  "mountains": 604, 
  "show": 605, 
  "horses": 606, 
  "cars": 607, 
  "net": 608, 
  "bearded": 609, 
  "jersey": 610, 
  "bathing": 611, 
  "performs": 612, 
  "nearby": 613, 
  "right": 614, 
  "dresses": 615, 
  "court": 616, 
  "make": 617, 
  "box": 618, 
  "driving": 619, 
  "snowboarder": 620, 
  "perform": 621, 
  "bowling": 622, 
  "can": 623, 
  "concert": 624, 
  "grill": 625, 
  "carries": 626, 
  "apron": 627, 
  "fruit": 628, 
  "leaves": 629, 
  "coffee": 630, 
  "flower": 631, 
  "painted": 632, 
  "various": 633, 
  "&@@": 634, 
  "cigarette": 635, 
  "parked": 636, 
  "students": 637, 
  "boots": 638, 
  "structure": 639, 
  "vendor": 640, 
  "smile": 641, 
  "shot": 642, 
  "surfer": 643, 
  "gentleman": 644, 
  "cake": 645, 
  "younger": 646, 
  "vehicle": 647, 
  "cup": 648, 
  "goggles": 649, 
  "talks": 650, 
  "smoking": 651, 
  "flying": 652, 
  "lit": 653, 
  "martial": 654, 
  "bottle": 655, 
  "drums": 656, 
  "home": 657, 
  "hit": 658, 
  "lying": 659, 
  "flags": 660, 
  "no": 661, 
  "kicking": 662, 
  "eyes": 663, 
  "new": 664, 
  "waves": 665, 
  "rodeo": 666, 
  "prepares": 667, 
  "safety": 668, 
  "paint": 669, 
  "alley": 670, 
  "swinging": 671, 
  "uses": 672, 
  "rocky": 673, 
  "coming": 674, 
  "jackets": 675, 
  "newspaper": 676, 
  "rail": 677, 
  "indian": 678, 
  "skating": 679, 
  "conversation": 680, 
  "gather": 681, 
  "parking": 682, 
  "bucket": 683, 
  "different": 684, 
  "practicing": 685, 
  "costumes": 686, 
  "gloves": 687, 
  "ladder": 688, 
  "listening": 689, 
  "bunch": 690, 
  "son": 691, 
  "hold": 692, 
  "bull": 693, 
  "competition": 694, 
  "scene": 695, 
  "roof": 696, 
  "cleaning": 697, 
  "cement": 698, 
  "wait": 699, 
  "onlookers": 700, 
  "tie": 701, 
  "skier": 702, 
  "items": 703, 
  "staring": 704, 
  "wet": 705, 
  "skateboarding": 706, 
  "blanket": 707, 
  "pile": 708, 
  "balloon": 709, 
  "bikini": 710, 
  "desk": 711, 
  "lawn": 712, 
  "railing": 713, 
  "empty": 714, 
  "giving": 715, 
  "audience": 716, 
  "3": 717, 
  "meal": 718, 
  "bicycles": 719, 
  "drinks": 720, 
  "military": 721, 
  "hot": 722, 
  "leaps": 723, 
  "gets": 724, 
  "sports": 725, 
  "display": 726, 
  "sliding": 727, 
  "vegetables": 728, 
  "pointing": 729, 
  "bird": 730, 
  "gathering": 731, 
  "biker": 732, 
  "bowl": 733, 
  "class": 734, 
  "streets": 735, 
  "competing": 736, 
  "wedding": 737, 
  "before": 738, 
  "stop": 739, 
  "chasing": 740, 
  "u": 741, 
  "do": 742, 
  "feet": 743, 
  "facing": 744, 
  "basket": 745, 
  "mask": 746, 
  "speaking": 747, 
  "huge": 748, 
  "platform": 749, 
  "helmets": 750, 
  "teams": 751, 
  "surfing": 752, 
  "classroom": 753, 
  "match": 754, 
  "tries": 755, 
  "pass": 756, 
  "bride": 757, 
  "silver": 758, 
  "lights": 759, 
  "surfboard": 760, 
  "climbs": 761, 
  "marathon": 762, 
  "traditional": 763, 
  "father": 764, 
  "seen": 765, 
  "ski": 766, 
  "purse": 767, 
  "waits": 768, 
  "sings": 769, 
  "fighting": 770, 
  "urban": 771, 
  "kissing": 772, 
  "animal": 773, 
  "screen": 774, 
  "musicians": 775, 
  "counter": 776, 
  "gold": 777, 
  "break": 778, 
  "stroller": 779, 
  "females": 780, 
  "same": 781, 
  "1@@": 782, 
  "v": 783, 
  "0@@": 784, 
  "4": 785, 
  "2@@": 786, 
  "5": 787, 
  "1": 788, 
  "!": 789, 
  "0": 790, 
  "(": 791, 
  ")": 792, 
  ".@@": 793, 
  ";@@": 794, 
  "3@@": 795, 
  "8": 796, 
  "6": 797, 
  "5@@": 798, 
  "j": 799, 
  "9@@": 800, 
  "#": 801, 
  "4@@": 802, 
  "z": 803, 
  "-": 804, 
  "?": 805, 
  "9": 806, 
  "7": 807, 
  "8@@": 808, 
  "6@@": 809, 
  "q": 810, 
  ":": 811, 
  ",@@": 812, 
  "`": 813, 
  "%": 814, 
  "$": 815, 
  "7@@": 816, 
  "=": 817
}