{
  "eos": 0, 
  "UNK": 1, 
  "un": 2, 
  ".": 3, 
  "une": 4, 
  "de": 5, 
  "i@@": 6, 
  "t@@": 7, 
  "s@@": 8, 
  "o@@": 9, 
  "u@@": 10, 
  "a@@": 11, 
  "r@@": 12, 
  "en": 13, 
  "p@@": 14, 
  "e@@": 15, 
  "d": 16, 
  "l@@": 17, 
  "dans": 18, 
  "sur": 19, 
  "et": 20, 
  "homme": 21, 
  "des": 22, 
  "avec": 23, 
  "c@@": 24, 
  "m@@": 25, 
  "b@@": 26, 
  "la": 27, 
  "à": 28, 
  "l": 29, 
  "le": 30, 
  "n@@": 31, 
  "g@@": 32, 
  ",": 33, 
  "f@@": 34, 
  "femme": 35, 
  "e": 36, 
  "d@@": 37, 
  "&apos;un": 38, 
  "v@@": 39, 
  "deux": 40, 
  "é@@": 41, 
  "en@@": 42, 
  "s": 43, 
  "an@@": 44, 
  "est": 45, 
  "se": 46, 
  "&apos;une": 47, 
  "ch@@": 48, 
  "&apos;@@": 49, 
  "es": 50, 
  "ant": 51, 
  "ar@@": 52, 
  "er@@": 53, 
  "er": 54, 
  "ent": 55, 
  "les": 56, 
  "in@@": 57, 
  "re@@": 58, 
  "debout": 59, 
  "personnes": 60, 
  "sont": 61, 
  "al@@": 62, 
  "ra@@": 63, 
  "jeune": 64, 
  "tandis": 65, 
  "devant": 66, 
  "du": 67, 
  "fille": 68, 
  "h@@": 69, 
  "ro@@": 70, 
  "au": 71, 
  "que": 72, 
  "groupe": 73, 
  "garçon": 74, 
  "assis": 75, 
  "é": 76, 
  "chien": 77, 
  "hommes": 78, 
  "ri@@": 79, 
  "t": 80, 
  "son": 81, 
  "ée": 82, 
  "on": 83, 
  "ti@@": 84, 
  "rue": 85, 
  "rouge": 86, 
  "qu": 87, 
  "portant": 88, 
  "noir": 89, 
  "po@@": 90, 
  "blanc": 91, 
  "pour": 92, 
  "è@@": 93, 
  "j@@": 94, 
  "t-shirt": 95, 
  "y@@": 96, 
  "ts": 97, 
  "gens": 98, 
  "r": 99, 
  "trois": 100, 
  "la@@": 101, 
  "train": 102, 
  "bleu": 103, 
  "femmes": 104, 
  "te": 105, 
  "fait": 106, 
  "&apos;eau": 107, 
  "enfant": 108, 
  "a": 109, 
  "ca@@": 110, 
  "sa": 111, 
  "qui": 112, 
  "qu@@": 113, 
  "côté": 114, 
  "-@@": 115, 
  "tient": 116, 
  "cou@@": 117, 
  "ta@@": 118, 
  "dé@@": 119, 
  "petit": 120, 
  "k@@": 121, 
  "aux": 122, 
  "regarde": 123, 
  "par@@": 124, 
  "enfants": 125, 
  "joue": 126, 
  "près": 127, 
  "tenant": 128, 
  "personne": 129, 
  "ses": 130, 
  "di@@": 131, 
  "vêtu": 132, 
  "jouant": 133, 
  "par": 134, 
  "li@@": 135, 
  "és": 136, 
  "am@@": 137, 
  "photo": 138, 
  "chemise": 139, 
  "jaune": 140, 
  "jeunes": 141, 
  "vélo": 142, 
  "ne": 143, 
  "ac@@": 144, 
  "jouent": 145, 
  "petite": 146, 
  "lors": 147, 
  "ge": 148, 
  "regardant": 149, 
  "dehors": 150, 
  "bâtiment": 151, 
  "marche": 152, 
  "x@@": 153, 
  "blanche": 154, 
  "lunettes": 155, 
  "vert": 156, 
  "y": 157, 
  "che": 158, 
  "veste": 159, 
  "eur": 160, 
  "i": 161, 
  "tes": 162, 
  "assise": 163, 
  "trottoir": 164, 
  "tout": 165, 
  "faisant": 166, 
  "saute": 167, 
  "regardent": 168, 
  "ré@@": 169, 
  "cheveux": 170, 
  "autre": 171, 
  "&apos;air": 172, 
  "is": 173, 
  "foule": 174, 
  "ement": 175, 
  "co@@": 176, 
  "marchant": 177, 
  "vi@@": 178, 
  "derrière": 179, 
  "plage": 180, 
  "con@@": 181, 
  "lo@@": 182, 
  "bleue": 183, 
  "ie": 184, 
  "porte": 185, 
  "ce": 186, 
  "table": 187, 
  "ire": 188, 
  "court": 189, 
  "mar@@": 190, 
  "neige": 191, 
  "ons": 192, 
  "ballon": 193, 
  "tant": 194, 
  "main": 195, 
  "vers": 196, 
  "rose": 197, 
  "quelque": 198, 
  "plusieurs": 199, 
  "com@@": 200, 
  "ine": 201, 
  "arrière-plan": 202, 
  "ées": 203, 
  "in": 204, 
  "chose": 205, 
  "leurs": 206, 
  "filles": 207, 
  "grand": 208, 
  "brun": 209, 
  "tenue": 210, 
  "ê@@": 211, 
  "orange": 212, 
  "w@@": 213, 
  "&apos;herbe": 214, 
  "marchent": 215, 
  "quatre": 216, 
  "chiens": 217, 
  "&quot;": 218, 
  "chapeau": 219, 
  "eau": 220, 
  "noire": 221, 
  "il": 222, 
  "football": 223, 
  "ville": 224, 
  "elle": 225, 
  "onn@@": 226, 
  "mur": 227, 
  "age": 228, 
  "o": 229, 
  "sous": 230, 
  "autour": 231, 
  "sse": 232, 
  "soleil": 233, 
  "robe": 234, 
  "balle": 235, 
  "me": 236, 
  "ba@@": 237, 
  "font": 238, 
  "&apos;il": 239, 
  "guitare": 240, 
  "bou@@": 241, 
  "garçons": 242, 
  "parc": 243, 
  "course": 244, 
  "assises": 245, 
  "bois": 246, 
  "sac": 247, 
  "&apos;autre": 248, 
  "â@@": 249, 
  "marron": 250, 
  "ensemble": 251, 
  "scène": 252, 
  "terre": 253, 
  "n": 254, 
  "long": 255, 
  "x": 256, 
  "joueur": 257, 
  "terrain": 258, 
  "gars": 259, 
  "maillot": 260, 
  "banc": 261, 
  "vêtue": 262, 
  "&apos;é@@": 263, 
  "pla@@": 264, 
  "asiatique": 265, 
  "verte": 266, 
  "leur": 267, 
  "bord": 268, 
  "tête": 269, 
  "lui": 270, 
  "haut": 271, 
  "jean": 272, 
  "pantalon": 273, 
  "ette": 274, 
  "voiture": 275, 
  "gris": 276, 
  "î@@": 277, 
  "dos": 278, 
  "u": 279, 
  "cor@@": 280, 
  "très": 281, 
  "costume": 282, 
  "casque": 283, 
  "short": 284, 
  "casquette": 285, 
  "vêtements": 286, 
  "couple": 287, 
  "sol": 288, 
  "eurs": 289, 
  "bébé": 290, 
  "route": 291, 
  "ment": 292, 
  "gros": 293, 
  "cheval": 294, 
  "z@@": 295, 
  "match": 296, 
  "mo@@": 297, 
  "&apos;autres": 298, 
  "ins": 299, 
  "bateau": 300, 
  "prend": 301, 
  "grande": 302, 
  "c": 303, 
  "sautant": 304, 
  "g": 305, 
  "téléphone": 306, 
  "pendant": 307, 
  "rouges": 308, 
  "magasin": 309, 
  "piscine": 310, 
  "ç@@": 311, 
  "sable": 312, 
  "champ": 313, 
  "nourriture": 314, 
  "milieu": 315, 
  "courant": 316, 
  "pose": 317, 
  "au-dessus": 318, 
  "face": 319, 
  "&apos;elle": 320, 
  "faire": 321, 
  "manteau": 322, 
  "parle": 323, 
  "k": 324, 
  "passe": 325, 
  "noirs": 326, 
  "&apos;homme": 327, 
  "contre": 328, 
  "té": 329, 
  "bras": 330, 
  "journée": 331, 
  "lit": 332, 
  "skateboard": 333, 
  "blancs": 334, 
  "ssant": 335, 
  "courent": 336, 
  "ô@@": 337, 
  "visage": 338, 
  "vieil": 339, 
  "f": 340, 
  "âgé": 341, 
  "marché": 342, 
  "blonde": 343, 
  "souriant": 344, 
  "entre": 345, 
  "tennis": 346, 
  "ques": 347, 
  "restaurant": 348, 
  "bain": 349, 
  "micro": 350, 
  "salle": 351, 
  "sourit": 352, 
  "eux": 353, 
  "portable": 354, 
  "arbre": 355, 
  "mains": 356, 
  "montagne": 357, 
  "chemin": 358, 
  "par-dessus": 359, 
  "cinq": 360, 
  "&apos;océan": 361, 
  "piste": 362, 
  "autres": 363, 
  "moto": 364, 
  "m": 365, 
  "fleurs": 366, 
  "cuisine": 367, 
  "américain": 368, 
  "jeu": 369, 
  "âgée": 370, 
  "tente": 371, 
  "travaille": 372, 
  "elles": 373, 
  "plein": 374, 
  "baseball": 375, 
  "travers": 376, 
  "être": 377, 
  "où": 378, 
  "beaucoup": 379, 
  "après": 380, 
  "parlant": 381, 
  "ou": 382, 
  "tenues": 383, 
  "plan": 384, 
  "aire": 385, 
  "vêtus": 386, 
  "quelqu": 387, 
  "ante": 388, 
  "&apos;extérieur": 389, 
  "jouer": 390, 
  "nu": 391, 
  "bus": 392, 
  "joueurs": 393, 
  "nuit": 394, 
  "travaillant": 395, 
  "rayé": 396, 
  "jouet": 397, 
  "&apos;hommes": 398, 
  "tiennent": 399, 
  "ges": 400, 
  "ouvriers": 401, 
  "ines": 402, 
  "camion": 403, 
  "planche": 404, 
  "habillé": 405, 
  "débardeur": 406, 
  "bas": 407, 
  "livre": 408, 
  "rampe": 409, 
  "gueule": 410, 
  "pièce": 411, 
  "travaillent": 412, 
  "dessus": 413, 
  "rivière": 414, 
  "blanches": 415, 
  "bleus": 416, 
  "petits": 417, 
  "violet": 418, 
  "adultes": 419, 
  "musique": 420, 
  "ces": 421, 
  "cycliste": 422, 
  "rocher": 423, 
  "semble": 424, 
  "&apos;enfants": 425, 
  "posent": 426, 
  "cours": 427, 
  "fenêtre": 428, 
  "quelques": 429, 
  "ches": 430, 
  "œ@@": 431, 
  "torse": 432, 
  "sweat": 433, 
  "pierre": 434, 
  "posant": 435, 
  "air": 436, 
  "chaise": 437, 
  "maison": 438, 
  "danse": 439, 
  "lac": 440, 
  "spectateurs": 441, 
  "pont": 442, 
  "ont": 443, 
  "plus": 444, 
  "utilise": 445, 
  "appareil": 446, 
  "chante": 447, 
  "corde": 448, 
  "clôture": 449, 
  "prenant": 450, 
  "pelouse": 451, 
  "équipe": 452, 
  "asiatiques": 453, 
  "bonnet": 454, 
  "gilet": 455, 
  "public": 456, 
  "objet": 457, 
  "marches": 458, 
  "&apos;objectif": 459, 
  "fête": 460, 
  "costumes": 461, 
  "balançoire": 462, 
  "stand": 463, 
  "glace": 464, 
  "zone": 465, 
  "métro": 466, 
  "manger": 467, 
  "vague": 468, 
  "polo": 469, 
  "figure": 470, 
  "point": 471, 
  "montre": 472, 
  "chariot": 473, 
  "allongé": 474, 
  "sacs": 475, 
  "trouve": 476, 
  "regarder": 477, 
  "escalade": 478, 
  "couleur": 479, 
  "pieds": 480, 
  "parlent": 481, 
  "forêt": 482, 
  "arbres": 483, 
  "bâton": 484, 
  "machine": 485, 
  "oranges": 486, 
  "briques": 487, 
  "prendre": 488, 
  "famille": 489, 
  "chaussures": 490, 
  "belle": 491, 
  "beige": 492, 
  "p": 493, 
  "ordinateur": 494, 
  "passent": 495, 
  "&apos;intérieur": 496, 
  "colline": 497, 
  "quai": 498, 
  "escalier": 499, 
  "z": 500, 
  "longs": 501, 
  "verre": 502, 
  "vieux": 503, 
  "pull": 504, 
  "jaunes": 505, 
  "carreaux": 506, 
  "peint": 507, 
  "pente": 508, 
  "fontaine": 509, 
  "casques": 510, 
  "&apos;ils": 511, 
  "canapé": 512, 
  "avant": 513, 
  "combinaison": 514, 
  "photos": 515, 
  "cette": 516, 
  "extérieur": 517, 
  "enneigée": 518, 
  "ciel": 519, 
  "place": 520, 
  "bruns": 521, 
  "café": 522, 
  "noires": 523, 
  "parapluie": 524, 
  "parmi": 525, 
  "t-shirts": 526, 
  "cour": 527, 
  "hockey": 528, 
  "tous": 529, 
  "prépare": 530, 
  "graffitis": 531, 
  "pied": 532, 
  "sorte": 533, 
  "dont": 534, 
  "alors": 535, 
  "blond": 536, 
  "ensoleillée": 537, 
  "saut": 538, 
  "vif": 539, 
  "utilisant": 540, 
  "travail": 541, 
  "papier": 542, 
  "attraper": 543, 
  "bleues": 544, 
  "forme": 545, 
  "yeux": 546, 
  "h": 547, 
  "tire": 548, 
  "gilets": 549, 
  "sport": 550, 
  "sommet": 551, 
  "ouvrier": 552, 
  "loin": 553, 
  "fruits": 554, 
  "frisbee": 555, 
  "dansent": 556, 
  "pêche": 557, 
  "arrière": 558, 
  "bouche": 559, 
  "barbe": 560, 
  "feu": 561, 
  "attendent": 562, 
  "basket": 563, 
  "adulte": 564, 
  "nombreux": 565, 
  "numéro": 566, 
  "frapper": 567, 
  "genoux": 568, 
  "attendant": 569, 
  "vêtues": 570, 
  "panneau": 571, 
  "cyclistes": 572, 
  "béton": 573, 
  "statue": 574, 
  "met": 575, 
  "plastique": 576, 
  "toit": 577, 
  "nus": 578, 
  "bureau": 579, 
  "pousse": 580, 
  "passant": 581, 
  "tas": 582, 
  "airs": 583, 
  "attend": 584, 
  "père": 585, 
  "descend": 586, 
  "vue": 587, 
  "proximité": 588, 
  "portent": 589, 
  "uniforme": 590, 
  "pleine": 591, 
  "instruments": 592, 
  "dansant": 593, 
  "moyen": 594, 
  "ligne": 595, 
  "mère": 596, 
  "lisant": 597, 
  "foot": 598, 
  "essayant": 599, 
  "rochers": 600, 
  "jupe": 601, 
  "feuilles": 602, 
  "spectacle": 603, 
  "&apos;est": 604, 
  "monte": 605, 
  "pancarte": 606, 
  "drapeau": 607, 
  "journal": 608, 
  "six": 609, 
  "uniformes": 610, 
  "montagnes": 611, 
  "sweat-shirt": 612, 
  "maillots": 613, 
  "sautent": 614, 
  "clair": 615, 
  "traverse": 616, 
  "fréquentée": 617, 
  "prennent": 618, 
  "métallique": 619, 
  "&apos;âge": 620, 
  "chaises": 621, 
  "sécurité": 622, 
  "défilé": 623, 
  "grosse": 624, 
  "verts": 625, 
  "structure": 626, 
  "foncés": 627, 
  "nombreuses": 628, 
  "promène": 629, 
  "ski": 630, 
  "mangeant": 631, 
  "concert": 632, 
  "vélos": 633, 
  "sauter": 634, 
  "tapis": 635, 
  "&apos;hiver": 636, 
  "sourient": 637, 
  "événement": 638, 
  "bière": 639, 
  "classe": 640, 
  "chapeaux": 641, 
  "dort": 642, 
  "rempli": 643, 
  "lance": 644, 
  "rodéo": 645, 
  "repas": 646, 
  "coin": 647, 
  "fauteuil": 648, 
  "û@@": 649, 
  "nombre": 650, 
  "lancer": 651, 
  "jeux": 652, 
  "sentier": 653, 
  "voitures": 654, 
  "écrit": 655, 
  "habillée": 656, 
  "&apos;équipe": 657, 
  "comme": 658, 
  "étant": 659, 
  "noël": 660, 
  "station": 661, 
  "depuis": 662, 
  "panier": 663, 
  "brune": 664, 
  "&apos;eux": 665, 
  "toboggan": 666, 
  "bar": 667, 
  "sans": 668, 
  "légumes": 669, 
  "compétition": 670, 
  "instrument": 671, 
  "équilibre": 672, 
  "glisse": 673, 
  "tablier": 674, 
  "gauche": 675, 
  "gants": 676, 
  "entouré": 677, 
  "ayant": 678, 
  "donne": 679, 
  "buvant": 680, 
  "blonds": 681, 
  "seau": 682, 
  "chantant": 683, 
  "coup": 684, 
  "barbu": 685, 
  "cigarette": 686, 
  "skateur": 687, 
  "pluie": 688, 
  "vieille": 689, 
  "même": 690, 
  "couleurs": 691, 
  "&apos;arbres": 692, 
  "paysage": 693, 
  "coupe": 694, 
  "dame": 695, 
  "roulant": 696, 
  "bottes": 697, 
  "battent": 698, 
  "colorés": 699, 
  "&apos;apprête": 700, 
  "surf": 701, 
  "ballons": 702, 
  "morceau": 703, 
  "drapeaux": 704, 
  "pilote": 705, 
  "longue": 706, 
  "but": 707, 
  "habillés": 708, 
  "temps": 709, 
  "côte": 710, 
  "grise": 711, 
  "rocheuse": 712, 
  "artiste": 713, 
  "âgées": 714, 
  "frappe": 715, 
  "véhicule": 716, 
  "doigt": 717, 
  "bien": 718, 
  "mer": 719, 
  "jardin": 720, 
  "&apos;arrière": 721, 
  "vertes": 722, 
  "produits": 723, 
  "poteau": 724, 
  "falaise": 725, 
  "traversent": 726, 
  "construction": 727, 
  "petites": 728, 
  "rassemblent": 729, 
  "préparant": 730, 
  "bâtiments": 731, 
  "bouteille": 732, 
  "snowboardeur": 733, 
  "martiaux": 734, 
  "peinture": 735, 
  "robes": 736, 
  "avoir": 737, 
  "surfeur": 738, 
  "foncé": 739, 
  "mange": 740, 
  "fils": 741, 
  "rit": 742, 
  "vitrine": 743, 
  "musiciens": 744, 
  "policier": 745, 
  "parler": 746, 
  "courses": 747, 
  "caméra": 748, 
  "vendeur": 749, 
  "bowling": 750, 
  "nage": 751, 
  "&apos;attraper": 752, 
  "chevaux": 753, 
  "cow-boy": 754, 
  "masque": 755, 
  "pas": 756, 
  "chantier": 757, 
  "capuche": 758, 
  "lire": 759, 
  "boule": 760, 
  "couverture": 761, 
  "mangent": 762, 
  "grands": 763, 
  "traversant": 764, 
  "skieur": 765, 
  "peu": 766, 
  "pavée": 767, 
  "rayée": 768, 
  "préparent": 769, 
  "longues": 770, 
  "penche": 771, 
  "lieu": 772, 
  "étendue": 773, 
  "roses": 774, 
  "espace": 775, 
  "collier": 776, 
  "ouverte": 777, 
  "filet": 778, 
  "tirant": 779, 
  "matériel": 780, 
  "canne": 781, 
  "immeuble": 782, 
  "manches": 783, 
  "premier": 784, 
  "âgés": 785, 
  "&apos;entre": 786, 
  "vient": 787, 
  "motocross": 788, 
  "bulles": 789, 
  "tour": 790, 
  "rivage": 791, 
  "pompiers": 792, 
  "descendant": 793, 
  "différentes": 794, 
  "poussette": 795, 
  "vend": 796, 
  "bikini": 797, 
  "photographe": 798, 
  "vole": 799, 
  "échelle": 800, 
  "base-ball": 801, 
  "remplie": 802, 
  "poisson": 803, 
  "discutent": 804, 
  "gâteau": 805, 
  "pelle": 806, 
  "adolescent": 807, 
  "allongée": 808, 
  "parking": 809, 
  "droite": 810, 
  "batterie": 811, 
  "vagues": 812, 
  "roule": 813, 
  "équipes": 814, 
  "vendant": 815, 
  "couvert": 816, 
  "sombre": 817, 
  "violette": 818, 
  "marcher": 819, 
  "conversation": 820, 
  "&apos;art": 821, 
  "boissons": 822, 
  "essaie": 823, 
  "taureau": 824, 
  "violon": 825, 
  "base": 826, 
  "laisse": 827, 
  "traverser": 828, 
  "coucher": 829, 
  "recouverte": 830, 
  "terrasse": 831, 
  "b": 832, 
  "w": 833, 
  "ï@@": 834, 
  "1@@": 835, 
  "ë": 836, 
  "2": 837, 
  ";": 838, 
  "0@@": 839, 
  "2@@": 840, 
  "!": 841, 
  "0": 842, 
  "5": 843, 
  "3": 844, 
  "(": 845, 
  "’": 846, 
  ")": 847, 
  "j": 848, 
  "4": 849, 
  ":": 850, 
  "5@@": 851, 
  "?": 852, 
  "3@@": 853, 
  "4@@": 854, 
  "ë@@": 855, 
  "&@@": 856, 
  "8": 857, 
  "6": 858, 
  ".@@": 859, 
  "9@@": 860, 
  "v": 861, 
  "6@@": 862, 
  "1": 863, 
  "9": 864, 
  "-": 865, 
  "8@@": 866, 
  "q@@": 867, 
  "q": 868, 
  "7": 869, 
  "ï": 870, 
  "à@@": 871, 
  ",@@": 872, 
  "%": 873, 
  "°": 874, 
  "ñ@@": 875, 
  "û": 876, 
  "»": 877, 
  "«": 878, 
  "7@@": 879, 
  "/": 880
}